TRT-7203-EntropyCalibration2
images: 3c010a14
128: 3e4600e9
129: 3c010a14
130: 3e13ef07
131: 3ee91c16
132: 3c010a14
133: 3e870b75
134: 3ede22f7
135: 3c010a14
136: 3d8d8442
137: 3dba9294
138: 3dba9294
139: 3e45ca98
140: 3c010a14
141: 3dbd4957
142: 3e06c660
143: 3c010a14
144: 3dc7cf2f
145: 3dba9294
146: 3dba9294
147: 3df44593
148: 3c00b148
149: 3d42d172
150: 3d598255
151: 3c009c6a
152: 3d10a670
153: 3d84c64b
154: 3c00ccb6
155: 3cd1aa6d
156: 3d65ef21
157: 3d65ef21
158: 3d3565a7
159: 3bfe7c95
160: 3ca521c2
161: 3d6f5301
162: 3bff67d9
163: 3d00629f
164: 3d65ef21
165: 3d57dcd3
166: 3c02b316
167: 3c3909cb
168: 3d9a95e5
169: 3c00cbb8
170: 3d43b2a8
171: 3d65ef21
172: 3d65ef21
173: 3d6056e7
174: 3c014496
175: 3cb22f08
176: 3d819304
177: 3c001472
178: 3cb1f2f9
179: 3daa773a
180: 3c0102c6
181: 3ce6b1a4
182: 3d2934f2
183: 3d2934f2
184: 3d68c0ea
185: 3bfead03
186: 3cc182a8
187: 3d461716
188: 3c03825e
189: 3ca4b8f9
190: 3d2934f2
191: 3d788e1a
192: 3c002c06
193: 3c91f119
194: 3da18ea9
195: 3c00f15f
196: 3d24f388
197: 3d2934f2
198: 3d2934f2
199: 3d65b9e4
200: 3c00b39f
201: 3c522b96
202: 3d89595b
203: 3c07c8ad
204: 3c87eabf
205: 3da392fd
206: 3c0637fb
207: 3cd1cb50
208: 3d1162da
209: 3d1162da
210: 3d842cd9
211: 3c010652
212: 3cb12ab3
213: 3da4b238
214: 3c021270
215: 3d3fa806
216: 3d1162da
217: 3d1162da
218: 3d8a36b7
219: 3c0096e8
220: 3cb28f16
221: 3d520b5c
222: 3c0047cb
223: 3d4d8c41
224: 3d4d8c41
225: 3d4d8c41
226: 3d4d8c41
227: 3d4d8c41
228: 3d76d1c5
229: 3bf881a9
230: 3cb36f74
235: 3c522b96
236: 3c522b96
237: 3d7207a4
238: 3c00549f
239: 3cc0ebc5
240: 3ce847cf
241: 3ce847cf
242: 3d5f552d
243: 3c00220f
244: 3c9ad34e
245: 3d8d08d0
246: 3c04e4e2
247: 3ce847cf
248: 3ce847cf
249: 3d8e4d3d
250: 3c0297b3
251: 3ca3bc72
256: 3cb22f08
257: 3cb22f08
258: 3d6824f3
259: 3bfc26a6
260: 3ca5a1e3
261: 3cea6e15
262: 3cea6e15
263: 3d474d38
264: 3c005c11
265: 3c8851d2
266: 3d3bfe04
267: 3c02fef8
268: 3cea6e15
269: 3cea6e15
270: 3d5b5529
271: 3c0035c8
272: 3cc15443
273: 3d6a3ec8
314: 3dc23e53
321: 3d8cf63a
274: 3c0401bb
315: 3c00a5e8
322: 3bfff2cf
275: 3ca3bc72
316: 3cb46665
323: 3c91375c
276: 3ca3bc72
317: 3e79e74a
324: 3e8d6b29
277: 3d63dbbd
318: 3c010a14
325: 3c010a14
278: 3c007e09
319: 3e16b6d7
326: 3e1d47b0
279: 3cb22c7d
320: 3e442aad
327: 3e442aad
328: 3e442aad
365: 3e66270d
280: 3d00f935
281: 3d00f935
282: 3d772c25
283: 3bfbfd17
284: 3c811ea6
285: 3dab3b80
286: 3c010b77
287: 3d00f935
288: 3d00f935
289: 3db9b814
290: 3c026f16
291: 3cc2bdf6
292: 3d53e738
329: 3ddda8f9
336: 3d9aecd0
293: 3c020431
330: 3c010a8e
337: 3c00ae18
294: 3cb36f74
331: 3d44b162
338: 3cd3b1ed
295: 3cb36f74
332: 3e56fead
339: 3efa7129
296: 3d76cd3d
333: 3c010a14
340: 3c010a14
297: 3c009c8c
334: 3e1b1ddb
341: 3e26c315
298: 3cb06b52
335: 3e7312d4
342: 3e7312d4
343: 3e7312d4
372: 3e66270d
299: 3d134cf8
300: 3d134cf8
301: 3d93e5c4
302: 3bfe2653
303: 3c877518
304: 3db03d5c
305: 3c04055e
306: 3d134cf8
307: 3d134cf8
308: 3dd77d79
309: 3c02009d
310: 3cc363a6
344: 3dc4600a
351: 3de197e6
345: 3c00e969
352: 3c01e5a3
346: 3d425089
353: 3d0f2cd1
347: 3e5076ee
354: 3edc75ad
348: 3c010a14
355: 3c010a14
349: 3dc9dcf2
356: 3deb57aa
350: 3e80c30d
357: 3e80c30d
358: 3e80c30d
379: 3e66270d
380: 3e66270d
381: 3e072e37
382: 3e6f2a3f
396: 3e072e37
397: 3e072e37
(Unnamed Layer* 338) [Shuffle]_output: 3e072e37
(Unnamed Layer* 339) [Softmax]_output: 3bb8e094
398: 3bb8e094
399: 3bb8e094
400: 3dbaebf5
406: 3dbaebf5
417: 3dc9f509
420: 3dbb5039
(Unnamed Layer* 413) [Constant]_output: 3f204a85
422: 3f2e3b3f
(Unnamed Layer* 415) [Constant]_output: 3f204a85
424: 3f2984e3
425: 3fa1c4ab
(Unnamed Layer* 419) [Shuffle]_output: 3c810a14
428: 3f35aa87
429: 3f35aa87
430: 3f35aa87
(Unnamed Layer* 423) [Constant]_output: 3e810a14
(Unnamed Layer* 424) [Shuffle]_output: 3e810a14
432: 40a1c4ab
433: 40a1c4ab
pre_transpose: 40a1c4ab
output0: 40a1c4ab
